<pad>	0
<unk>	0
<s>	0
</s>	0
[MASK]	0
ng	-0
▁t	-1
▁đ	-2
▁n	-3
▁c	-4
▁b	-5
▁m	-6
▁k	-7
▁l	-8
▁kh	-9
▁r	-10
▁th	-11
▁ng	-12
▁g	-13
▁nh	-14
▁ch	-15
▁h	-16
▁v	-17
ông	-18
▁gi	-19
▁đi	-20
ồi	-21
▁s	-22
nh	-23
▁rồi	-24
ôi	-25
ời	-26
▁không	-27
▁tr	-28
qu	-29
▁qu	-30
ơi	-31
▁p	-32
▁ph	-33
▁ơi	-34
▁T	-35
òng	-36
ức	-37
▁d	-38
▁phòng	-39
▁ngủ	-40
▁giờ	-41
▁trời	-42
ạt	-43
ắt	-44
▁cho	-45
▁nhà	-46
ui	-47
▁x	-48
▁lạ	-49
ật	-50
▁quạt	-51
óng	-52
▁thức	-53
áo	-54
▁C	-55
èn	-56
áng	-57
▁đèn	-58
ch	-59
ết	-60
▁B	-61
▁báo	-62
ay	-63
ào	-64
ối	-65
au	-66
on	-67
oà	-68
ây	-69
▁ni	-70
▁H	-71
▁có	-72
em	-73
▁bật	-74
▁sáng	-75
▁là	-76
ới	-77
ái	-78
▁tôi	-79
▁về	-80
ôm	-81
▁nóng	-82
ấy	-83
ượ	-84
ần	-85
▁lạnh	-86
ữa	-87
uố	-88
ày	-89
oài	-90
▁quá	-91
▁ôi	-92
ên	-93
ậy	-94
ược	-95
▁N	-96
ắm	-97
▁cái	-98
▁tắt	-99
▁được	-100
ếp	-101
▁M	-102
▁đó	-103
ạn	-104
▁nữa	-105
▁ngoài	-106
▁bếp	-107
iết	-108
ách	-109
▁Đ	-110
▁nào	-111
▁lắm	-112
ặt	-113
▁ra	-114
ăn	-115
ai	-116
ang	-117
ùm	-118
ơn	-119
ều	-120
▁thôi	-121
▁xem	-122
ưa	-123
▁tui	-124
iệ	-125
▁ngh	-126
uốn	-127
▁ăn	-128
▁muốn	-129
▁khách	-130
▁nay	-131
▁cả	-132
▁mấy	-133
ình	-134
▁con	-135
út	-136
▁nha	-137
▁cần	-138
▁làm	-139
▁Hôm	-140
▁dậy	-141
▁nhé	-142
▁đang	-143
▁Ch	-144
▁bạn	-145
ột	-146
ướ	-147
▁khó	-148
iều	-149
▁độ	-150
ửa	-151
▁ngày	-152
▁nghe	-153
▁mở	-154
▁mai	-155
▁lên	-156
âu	-157
▁tau	-158
ân	-159
▁tối	-160
ười	-161
▁má	-162
ao	-163
▁ki	-164
ừng	-165
▁Tui	-166
▁bây	-167
ước	-168
▁giời	-169
▁ối	-170
▁hôm	-171
úc	-172
▁biết	-173
▁Th	-174
▁cửa	-175
ất	-176
▁1	-177
ổi	-178
▁ạ	-179
▁đặt	-180
▁K	-181
▁bu	-182
úp	-183
▁đâu	-184
▁sân	-185
ủy	-186
▁mới	-187
▁thông	-188
ong	-189
▁mình	-190
▁giùm	-191
▁người	-192
▁Ng	-193
anh	-194
▁hết	-195
▁với	-196
▁gió	-197
▁lúc	-198
ắp	-199
ện	-200
▁ti	-201
▁giúp	-202
▁bí	-203
▁hơn	-204
ãi	-205
▁lại	-206
ắc	-207
▁em	-208
▁đây	-209
ọc	-210
▁Tr	-211
▁chu	-212
ứa	-213
ỏi	-214
ừa	-215
ôn	-216
▁Kh	-217
▁lu	-218
▁này	-219
▁vãi	-220
ét	-221
êm	-222
▁khí	-223
▁bị	-224
▁gì	-225
ắng	-226
▁luôn	-227
▁chị	-228
▁vừa	-229
ến	-230
▁sắp	-231
▁vậy	-232
▁rứa	-233
▁phút	-234
an	-235
oi	-236
ấu	-237
ịch	-238
▁Con	-239
▁S	-240
ẹn	-241
▁hay	-242
▁lịch	-243
iệt	-244
▁ơn	-245
▁mẹ	-246
ệt	-247
▁rét	-248
▁vào	-249
▁dùm	-250
▁đồ	-251
▁tới	-252
▁mà	-253
▁như	-254
▁anh	-255
▁chưa	-256
▁G	-257
ăng	-258
▁máy	-259
▁L	-260
▁Trời	-261
ểm	-262
▁chịu	-263
▁vui	-264
▁nghen	-265
êu	-266
▁thứ	-267
▁mệt	-268
▁chiều	-269
▁nó	-270
▁đến	-271
▁tra	-272
▁ngột	-273
ác	-274
ua	-275
ơm	-276
úng	-277
▁hẹn	-278
▁kho	-279
▁một	-280
▁Bạn	-281
▁Thôi	-282
▁5	-283
▁mù	-284
▁e	-285
▁Nh	-286
▁6	-287
▁mi	-288
▁Tau	-289
▁thế	-290
▁Không	-291
▁nấu	-292
ỉnh	-293
▁kiểm	-294
ườ	-295
▁hè	-296
▁eng	-297
▁khóa	-298
▁nhiều	-299
ọi	-300
uống	-301
▁bức	-302
▁thiết	-303
▁buổi	-304
▁nhắc	-305
ại	-306
▁7	-307
▁Hủy	-308
▁mắt	-309
▁mạ	-310
▁ri	-311
▁khi	-312
▁mát	-313
▁sao	-314
ún	-315
▁chừ	-316
▁cảm	-317
▁hủy	-318
▁mùi	-319
▁Gi	-320
▁mua	-321
▁thở	-322
ớm	-323
ường	-324
▁chuy	-325
▁nước	-326
▁xong	-327
ống	-328
▁mưa	-329
▁nhở	-330
ốt	-331
▁buồ	-332
▁học	-333
▁nói	-334
▁để	-335
▁đừng	-336
ực	-337
▁cơm	-338
▁sau	-339
▁sớm	-340
▁điện	-341
▁mô	-342
▁ba	-343
▁Bây	-344
▁Đặt	-345
▁ngon	-346
▁thấy	-347
▁tỉnh	-348
▁chuyện	-349
▁10	-350
▁trong	-351
▁ê	-352
▁đêm	-353
▁Bỏ	-354
▁chi	-355
ải	-356
ấc	-357
▁đúng	-358
ẩm	-359
en	-360
▁ở	-361
▁tu	-362
▁ẩm	-363
▁bỏ	-364
▁A	-365
ặng	-366
▁vẻ	-367
▁thử	-368
▁trước	-369
▁Ba	-370
iêu	-371
iện	-372
ảm	-373
ập	-374
iệc	-375
▁oi	-376
▁khu	-377
▁khỏi	-378
▁nắng	-379
▁cún	-380
▁tất	-381
▁nhiệt	-382
▁nhỉ	-383
▁ngắt	-384
ạy	-385
▁hút	-386
▁chút	-387
▁nặng	-388
▁việc	-389
oàn	-390
▁nờ	-391
ùng	-392
▁bà	-393
▁giấc	-394
▁y	-395
▁tuần	-396
ền	-397
in	-398
ọn	-399
▁buồn	-400
▁ổ	-401
▁cũ	-402
▁Ngoài	-403
▁R	-404
▁hu	-405
▁ổn	-406
▁điều	-407
▁3	-408
▁chạy	-409
▁2	-410
▁đã	-411
▁8	-412
▁E	-413
ích	-414
▁chỗ	-415
▁coi	-416
▁tho	-417
ot	-418
▁hỉ	-419
▁hộ	-420
át	-421
▁V	-422
▁Mi	-423
▁Anh	-424
▁9	-425
▁kinh	-426
▁thêm	-427
▁Đừng	-428
▁Mẹ	-429
▁gh	-430
▁toàn	-431
ầm	-432
ẹp	-433
ầu	-434
▁dạ	-435
▁vô	-436
▁trưa	-437
▁động	-438
ủa	-439
▁bộ	-440
▁uống	-441
iể	-442
ươ	-443
ắn	-444
▁D	-445
ương	-446
▁Eng	-447
▁của	-448
▁mọi	-449
▁thị	-450
ăm	-451
▁Tắt	-452
ánh	-453
▁Cho	-454
▁chứ	-455
▁thể	-456
àng	-457
ạnh	-458
âng	-459
ứng	-460
▁ghê	-461
▁tập	-462
▁bụ	-463
▁Bật	-464
▁bước	-465
▁nghỉ	-466
eo	-467
ếng	-468
▁lo	-469
▁tốt	-470
▁đọc	-471
▁thích	-472
▁o	-473
▁Mạ	-474
▁chào	-475
▁khoá	-476
▁răng	-477
ính	-478
▁Có	-479
▁hỏi	-480
▁cũng	-481
▁khoẻ	-482
▁xuống	-483
id	-484
ạng	-485
▁li	-486
▁qua	-487
im	-488
▁bên	-489
▁hôi	-490
▁nhá	-491
▁tao	-492
▁Sáng	-493
▁đường	-494
▁ko	-495
▁nè	-496
▁kia	-497
▁lòng	-498
▁trạng	-499
âm	-500
ỗi	-501
▁vắng	-502
uối	-503
▁đẹp	-504
▁tiếp	-505
▁4	-506
▁P	-507
▁tê	-508
▁chợ	-509
▁hen	-510
▁lượ	-511
▁Nhắc	-512
▁bóng	-513
▁cùng	-514
▁phải	-515
ke	-516
ặp	-517
▁dễ	-518
▁tan	-519
▁đấy	-520
▁vâng	-521
▁lượng	-522
▁từ	-523
▁Mấy	-524
▁các	-525
▁Chừ	-526
▁ngồi	-527
▁trần	-528
òn	-529
Ăn	-530
ưỡ	-531
ấm	-532
▁Ăn	-533
▁Bữa	-534
▁bao	-535
▁nổi	-536
▁ừ	-537
êng	-538
▁30	-539
▁Ph	-540
▁cổ	-541
▁gọi	-542
▁tiết	-543
▁tiếng	-544
▁X	-545
▁ý	-546
▁kệ	-547
▁Tôi	-548
▁tin	-549
▁Ngày	-550
▁tăng	-551
▁15	-552
▁ho	-553
▁tư	-554
▁vl	-555
▁giảm	-556
▁ngay	-557
▁riêng	-558
ưỡi	-559
▁Giờ	-560
▁cây	-561
▁chất	-562
▁rưỡi	-563
▁thoại	-564
▁Đi	-565
▁bữa	-566
ẩn	-567
ận	-568
ặc	-569
▁ai	-570
▁gặp	-571
▁hầm	-572
▁hiện	-573
▁thống	-574
ài	-575
▁Bên	-576
▁còn	-577
uốt	-578
▁mốt	-579
▁cóng	-580
▁nhau	-581
▁nhiêu	-582
ob	-583
ục	-584
iển	-585
▁lò	-586
▁vì	-587
obot	-588
▁Tối	-589
ya	-590
ản	-591
ởi	-592
ạch	-593
▁hò	-594
▁rời	-595
▁chơi	-596
▁nhất	-597
▁phim	-598
vi	-599
▁hòa	-600
▁Nóng	-601
▁giặt	-602
ạc	-603
ếu	-604
▁ké	-605
▁no	-606
▁vi	-607
▁Thứ	-608
▁khác	-609
▁khói	-610
▁liền	-611
▁Đúng	-612
▁khuya	-613
ỉu	-614
▁Cái	-615
▁bụi	-616
▁nhỏ	-617
▁xỉu	-618
▁cổng	-619
▁theo	-620
▁đồng	-621
▁robot	-622
▁xương	-623
un	-624
▁11	-625
▁đầu	-626
▁Lạnh	-627
▁chuông	-628
pe	-629
ung	-630
▁số	-631
▁tủ	-632
▁Cảm	-633
▁thì	-634
▁tại	-635
▁thái	-636
it	-637
àm	-638
ảnh	-639
▁on	-640
▁tự	-641
▁bài	-642
▁hoà	-643
▁lâu	-644
▁nhẹ	-645
▁thật	-646
ấp	-647
▁Bu	-648
▁Hu	-649
▁Làm	-650
▁bàn	-651
▁hơi	-652
▁mỗi	-653
▁biển	-654
▁ngạt	-655
ành	-656
▁cứ	-657
▁mồ	-658
▁ấm	-659
▁Mưa	-660
▁buốt	-661
▁thời	-662
ìm	-663
▁an	-664
▁su	-665
▁và	-666
▁đủ	-667
▁Sau	-668
▁cực	-669
▁sức	-670
▁thịt	-671
▁nhưng	-672
ar	-673
ll	-674
ít	-675
▁to	-676
▁đổ	-677
áu	-678
ảng	-679
▁lý	-680
▁áo	-681
▁kém	-682
▁man	-683
▁run	-684
▁chuẩn	-685
ea	-686
▁dã	-687
▁hệ	-688
▁ta	-689
▁tắm	-690
▁cuối	-691
▁nope	-692
▁sách	-693
▁tivi	-694
▁đứng	-695
▁chính	-696
▁nhanh	-697
ói	-698
ity	-699
mid	-700
▁bé	-701
▁Mua	-702
midity	-703
▁humidity	-704
ed	-705
▁co	-706
▁tề	-707
▁Ngủ	-708
▁huỷ	-709
▁mỏi	-710
▁thi	-711
▁hàng	-712
áp	-713
▁O	-714
▁dí	-715
▁dữ	-716
▁hã	-717
▁đá	-718
▁Chị	-719
▁công	-720
uộ	-721
ẳn	-722
▁U	-723
▁Mở	-724
▁ít	-725
▁díp	-726
▁dọn	-727
▁mất	-728
▁nhớ	-729
▁nơi	-730
▁phê	-731
▁trợ	-732
▁yêu	-733
▁Mình	-734
▁nhạc	-735
▁buồng	-736
Qu	-737
▁u	-738
▁ô	-739
▁Qu	-740
▁cà	-741
▁mẻ	-742
▁ok	-743
▁Hẹn	-744
▁Lúc	-745
▁hẳn	-746
▁hồi	-747
▁Răng	-748
▁ngơi	-749
▁siêu	-750
▁sóng	-751
▁sạch	-752
▁tình	-753
▁đông	-754
èm	-755
ốc	-756
▁à	-757
▁Kho	-758
▁Nấu	-759
▁chỉ	-760
▁dục	-761
▁nhi	-762
▁đói	-763
▁Buổi	-764
▁hoài	-765
▁hoạt	-766
▁quang	-767
er	-768
ảy	-769
ine	-770
ọng	-771
ồng	-772
▁sẽ	-773
▁xe	-774
▁đo	-775
ướng	-776
▁hãy	-777
▁mặc	-778
▁xin	-779
▁bánh	-780
▁thấp	-781
▁tiện	-782
▁tươi	-783
áy	-784
ìn	-785
iểu	-786
uốc	-787
ướt	-788
▁kể	-789
▁sự	-790
▁cắt	-791
▁loa	-792
▁okay	-793
▁phát	-794
▁quên	-795
▁trông	-796
▁giường	-797
▁ả	-798
▁đỡ	-799
line	-800
▁Huỷ	-801
▁Một	-802
▁bot	-803
▁led	-804
▁nực	-805
▁oke	-806
▁sắm	-807
▁tay	-808
▁vực	-809
▁đổi	-810
▁mạnh	-811
▁Chiều	-812
▁thường	-813
ox	-814
re	-815
én	-816
ồn	-817
▁di	-818
▁Oke	-819
▁khô	-820
▁lau	-821
▁mặt	-822
▁rau	-823
▁hiểu	-824
▁hình	-825
▁thuốc	-826
ón	-827
ẫn	-828
ỏe	-829
▁Ừ	-830
eah	-831
▁Về	-832
▁bún	-833
▁car	-834
▁hắn	-835
▁Nắng	-836
▁bụng	-837
▁khỏe	-838
▁khởi	-839
▁nghĩ	-840
▁nhìn	-841
▁quen	-842
▁rảnh	-843
▁yeah	-844
▁Chừng	-845
▁Nhiệt	-846
▁thiếu	-847
ặn	-848
bon	-849
ide	-850
▁20	-851
▁Hai	-852
▁lần	-853
▁món	-854
▁trở	-855
▁tâm	-856
oxide	-857
▁Chào	-858
▁Thời	-859
▁bỏng	-860
▁giây	-861
▁carbon	-862
▁dioxide	-863
am	-864
st	-865
▁Ô	-866
▁da	-867
▁Hắn	-868
▁bắt	-869
▁thư	-870
▁kiệt	-871
▁minh	-872
▁ngáp	-873
▁thay	-874
▁trên	-875
▁thành	-876
▁online	-877
ằng	-878
▁sư	-879
▁âm	-880
▁Tìm	-881
▁tức	-882
▁đắp	-883
▁Dừng	-884
▁chùm	-885
▁chăn	-886
▁chết	-887
▁thân	-888
▁thơm	-889
▁đình	-890
30	-891
án	-892
ễm	-893
ườn	-894
▁bò	-895
▁hả	-896
▁sổ	-897
▁gắt	-898
▁mức	-899
▁nên	-900
▁ống	-901
▁canh	-902
▁dùng	-903
▁miền	-904
▁sure	-905
▁sưởi	-906
▁xanh	-907
▁nhiễm	-908
ậu	-909
ọp	-910
ỳnh	-911
▁hi	-912
▁Nhà	-913
▁Năm	-914
▁gọn	-915
▁rửa	-916
▁yên	-917
▁nhắm	-918
▁thăm	-919
▁vườn	-920
▁Trung	-921
▁Khoảng	-922
àn	-923
ãn	-924
óc	-925
ội	-926
ớt	-927
▁Ki	-928
▁Chủ	-929
▁Gió	-930
▁dạo	-931
▁gần	-932
▁hai	-933
▁họp	-934
▁lời	-935
▁mùa	-936
▁vẫn	-937
▁Uống	-938
▁bách	-939
▁bình	-940
▁quay	-941
▁điên	-942
▁huỳnh	-943
▁trống	-944
be	-945
uy	-946
óa	-947
ằm	-948
ộp	-949
emp	-950
iệm	-951
iệu	-952
▁12	-953
▁45	-954
▁bố	-955
▁cố	-956
▁rồ	-957
▁Dọn	-958
▁Xem	-959
▁bối	-960
▁năm	-961
▁trả	-962
▁cách	-963
▁giãn	-964
▁temp	-965
▁Người	-966
▁Ngừng	-967
▁thiêu	-968
ám	-969
ầy	-970
ịt	-971
ộn	-972
oại	-973
▁kế	-974
▁Cơm	-975
▁Sáu	-976
▁gật	-977
▁ran	-978
▁sữa	-979
▁ánh	-980
▁Kiểm	-981
▁Nhật	-982
▁gian	-983
▁giác	-984
▁quần	-985
▁tháng	-986
ĩu	-987
llo	-988
ững	-989
▁dị	-990
▁lớ	-991
▁đị	-992
▁bận	-993
▁cao	-994
▁kêu	-995
▁tìm	-996
▁đau	-997
▁Chưa	-998
▁trĩu	-999
▁Điều	-1000
▁Phòng	-1001
▁chỉnh	-1002
▁trung	-1003
ín	-1004
ùa	-1005
iền	-1006
ệnh	-1007
▁Cả	-1008
▁Hệ	-1009
▁Kể	-1010
▁Ti	-1011
▁cá	-1012
▁dự	-1013
▁mì	-1014
▁xa	-1015
▁Ôi	-1016
ello	-1017
▁dẹp	-1018
▁gia	-1019
▁lấy	-1020
▁mái	-1021
▁mây	-1022
▁tốc	-1023
▁đặc	-1024
▁ướt	-1025
▁Thức	-1026
▁bằng	-1027
▁chắc	-1028
▁mang	-1029
▁phơi	-1030
▁quan	-1031
▁thổi	-1032
▁tiêu	-1033
▁tính	-1034
▁chang	-1035
▁hoạch	-1036
▁những	-1037
▁thoáng	-1038
ợi	-1039
▁Dạ	-1040
▁TV	-1041
▁ly	-1042
▁rõ	-1043
▁tí	-1044
▁ác	-1045
▁Chi	-1046
▁Tao	-1047
▁lát	-1048
▁lớn	-1049
▁mau	-1050
▁nhờ	-1051
▁nấc	-1052
▁trễ	-1053
▁Giúp	-1054
▁Giặt	-1055
▁Quạt	-1056
▁biệt	-1057
▁chén	-1058
▁nhật	-1059
▁hello	-1060
▁nướng	-1061
▁trọng	-1062
óm	-1063
ậm	-1064
ển	-1065
yết	-1066
ênh	-1067
ỏng	-1068
▁Tư	-1069
▁gà	-1070
▁Bảy	-1071
▁ban	-1072
▁chớ	-1073
▁giá	-1074
▁kèm	-1075
▁mãi	-1076
▁ngờ	-1077
▁nhễ	-1078
▁nóc	-1079
▁trà	-1080
▁vặn	-1081
▁Đèn	-1082
▁Đến	-1083
▁ảnh	-1084
▁cháy	-1085
▁cứng	-1086
▁muối	-1087
▁nhại	-1088
▁quán	-1089
▁thối	-1090
▁Được	-1091
▁định	-1092
▁chừng	-1093
▁phiền	-1094
▁thiệt	-1095
est	-1096
inh	-1097
uộn	-1098
ĩnh	-1099
ươi	-1100
ụng	-1101
▁Ui	-1102
▁dù	-1103
▁gỡ	-1104
▁kỳ	-1105
▁Để	-1106
▁Báo	-1107
▁Huế	-1108
▁Lau	-1109
▁Máy	-1110
▁Nhớ	-1111
▁bản	-1112
▁phù	-1113
▁quả	-1114
▁đơn	-1115
▁đều	-1116
▁Cuối	-1117
▁Phải	-1118
▁chín	-1119
▁giản	-1120
▁hiên	-1121
▁kiệm	-1122
▁kênh	-1123
▁lành	-1124
▁muộn	-1125
▁mươi	-1126
▁mướt	-1127
▁nhận	-1128
▁phản	-1129
▁tĩnh	-1130
▁tưới	-1131
▁tạnh	-1132
▁thoải	-1133
oo	-1134
ut	-1135
ụi	-1136
▁á	-1137
ing	-1138
ưng	-1139
ởng	-1140
▁Bí	-1141
▁Đà	-1142
▁Gọi	-1143
▁Mùa	-1144
▁Rứa	-1145
▁bất	-1146
▁bớt	-1147
▁kem	-1148
▁tết	-1149
▁đầy	-1150
▁chậm	-1151
▁cười	-1152
▁giỏi	-1153
▁hiệu	-1154
▁hành	-1155
▁liên	-1156
▁mạng	-1157
▁nhắn	-1158
▁năng	-1159
▁tích	-1160
▁Điện	-1161
▁đóng	-1162
▁quyết	-1163
et	-1164
ra	-1165
ẻo	-1166
ếm	-1167
ợp	-1168
ứt	-1169
▁f	-1170
uội	-1171
ẳng	-1172
ẵng	-1173
▁bi	-1174
▁rị	-1175
▁se	-1176
▁sẻ	-1177
▁xí	-1178
▁ấy	-1179
▁Cài	-1180
▁Gia	-1181
▁Mệt	-1182
▁Nói	-1183
▁Sai	-1184
▁Xóa	-1185
▁bay	-1186
▁dài	-1187
▁dịu	-1188
▁hén	-1189
▁hợp	-1190
▁kẻo	-1191
▁lọc	-1192
▁lỗi	-1193
▁nằm	-1194
▁xóm	-1195
▁Đói	-1196
▁Đọc	-1197
▁đậu	-1198
▁Nẵng	-1199
▁Vâng	-1200
▁hỏng	-1201
▁mười	-1202
▁nồng	-1203
▁sinh	-1204
▁than	-1205
▁nguội	-1206
ks	-1207
le	-1208
ão	-1209
éo	-1210
ạm	-1211
▁a	-1212
era	-1213
ủng	-1214
▁An	-1215
▁Em	-1216
▁Gỡ	-1217
▁Ra	-1218
▁cơ	-1219
▁kỹ	-1220
▁tố	-1221
▁vị	-1222
iệng	-1223
▁Cần	-1224
▁Mới	-1225
▁Ngh	-1226
▁Nửa	-1227
▁Tập	-1228
▁bần	-1229
▁kết	-1230
▁lăm	-1231
▁lửa	-1232
▁mắm	-1233
▁nồi	-1234
▁phố	-1235
▁xác	-1236
▁đón	-1237
▁Buồn	-1238
▁Hàng	-1239
▁bệnh	-1240
▁cháo	-1241
▁giải	-1242
▁gàng	-1243
▁hoàn	-1244
▁ngộp	-1245
▁từng	-1246
▁vibe	-1247
▁Ngoại	-1248
▁chiếu	-1249
▁khủng	-1250
▁miệng	-1251
▁nhàng	-1252
▁trứng	-1253
▁thanks	-1254
ag	-1255
hi	-1256
ic	-1257
if	-1258
pp	-1259
▁À	-1260
▁Ơ	-1261
▁Ả	-1262
30,	-1263
out	-1264
uộc	-1265
▁Tớ	-1266
▁bè	-1267
▁bờ	-1268
▁ga	-1269
▁so	-1270
▁Đồ	-1271
▁Bọn	-1272
▁Dậy	-1273
▁Nhờ	-1274
▁Pha	-1275
▁Sao	-1276
▁Sắp	-1277
▁Xin	-1278
▁che	-1279
▁chả	-1280
▁chủ	-1281
▁kéo	-1282
▁mày	-1283
▁nửa	-1284
▁phụ	-1285
▁pin	-1286
▁sai	-1287
▁sàn	-1288
▁thu	-1289
▁tục	-1290
▁xíu	-1291
▁Đêm	-1292
▁đất	-1293
▁đợi	-1294
▁Mười	-1295
▁Tình	-1296
▁chân	-1297
▁giao	-1298
▁giữa	-1299
▁gắng	-1300
▁liệt	-1301
▁ngắm	-1302
▁phúc	-1303
▁thực	-1304
▁vàng	-1305
▁sương	-1306
▁trắng	-1307
ow	-1308
ss	-1309
ép	-1310
ẹt	-1311
▁w	-1312
▁Ê	-1313
ood	-1314
ổng	-1315
ộng	-1316
▁Tủ	-1317
▁nề	-1318
▁Đổ	-1319
▁Coi	-1320
▁Gặp	-1321
▁Hội	-1322
▁Lát	-1323
▁Lần	-1324
▁Mắt	-1325
▁Mỗi	-1326
▁Tầm	-1327
▁bọn	-1328
▁bực	-1329
▁cha	-1330
▁cài	-1331
▁dầu	-1332
▁góc	-1333
▁heo	-1334
▁hập	-1335
▁mần	-1336
▁pha	-1337
▁quý	-1338
▁rác	-1339
▁rát	-1340
▁sáu	-1341
▁tuy	-1342
▁đen	-1343
▁đứa	-1344
▁Chia	-1345
▁Công	-1346
▁Tivi	-1347
▁chua	-1348
▁chấm	-1349
▁cuốn	-1350
▁cảnh	-1351
▁kiếm	-1352
▁lắng	-1353
▁lặng	-1354
▁thèm	-1355
▁thói	-1356
▁Đồng	-1357
▁đáng	-1358
▁ngoại	-1359
▁nhiên	-1360
▁trình	-1361
TV	-1362
ct	-1363
ạp	-1364
hip	-1365
lly	-1366
ube	-1367
▁23	-1368
▁Cơ	-1369
▁ca	-1370
▁dư	-1371
▁hư	-1372
▁lá	-1373
▁nì	-1374
▁vệ	-1375
▁áp	-1376
▁Đã	-1377
▁Bầu	-1378
▁Hết	-1379
▁Học	-1380
▁Khu	-1381
▁Khó	-1382
▁Mai	-1383
▁Nằm	-1384
▁Rét	-1385
▁Trà	-1386
▁Tụi	-1387
▁Vui	-1388
▁bội	-1389
▁chú	-1390
▁cúp	-1391
▁giữ	-1392
▁kẹt	-1393
▁lộn	-1394
▁màn	-1395
▁sản	-1396
▁sửa	-1397
▁tái	-1398
▁xộn	-1399
▁Ông	-1400
▁Đâu	-1401
▁Bánh	-1402
▁Bụng	-1403
▁Chúc	-1404
▁Chắc	-1405
▁Nghỉ	-1406
▁Phơi	-1407
▁Việt	-1408
▁chảy	-1409
▁chắn	-1410
▁giật	-1411
▁gừng	-1412
▁hanh	-1413
▁hạnh	-1414
▁khăn	-1415
▁lười	-1416
▁phùn	-1417
▁thần	-1418
▁đánh	-1419
▁đãng	-1420
▁Chính	-1421
▁Trong	-1422
▁chiên	-1423
▁hướng	-1424
▁tráng	-1425
45	-1426
li	-1427
se	-1428
ym	-1429
èo	-1430
úi	-1431
ạo	-1432
ảo	-1433
ệm	-1434
ịp	-1435
ọt	-1436
ụp	-1437
ửi	-1438
▁Á	-1439
end	-1440
ifi	-1441
ver	-1442
ựng	-1443
▁Vô	-1444
▁bổ	-1445
▁hồ	-1446
▁im	-1447
▁mỡ	-1448
▁rẻ	-1449
▁vụ	-1450
ideo	-1451
▁Bún	-1452
▁Chỗ	-1453
▁Chợ	-1454
▁Hàn	-1455
▁Lên	-1456
▁Mặc	-1457
▁Nam	-1458
▁Này	-1459
▁Sơn	-1460
▁Thử	-1461
▁VTV	-1462
▁bão	-1463
▁bét	-1464
▁bảy	-1465
▁cam	-1466
▁dạy	-1467
▁dần	-1468
▁dừa	-1469
▁gym	-1470
▁gối	-1471
▁hoa	-1472
▁hát	-1473
▁kịp	-1474
▁nối	-1475
▁rào	-1476
▁rất	-1477
▁rịt	-1478
▁sum	-1479
▁sạc	-1480
▁thợ	-1481
▁tôm	-1482
▁tạm	-1483
▁tốn	-1484
▁vặt	-1485
▁xếp	-1486
▁ông	-1487
▁Đau	-1488
▁Biển	-1489
▁Chân	-1490
▁Ngột	-1491
▁Nước	-1492
▁Phim	-1493
▁Rang	-1494
▁Siêu	-1495
▁Thay	-1496
▁chia	-1497
▁chán	-1498
▁dụng	-1499
▁hông	-1500
▁liệu	-1501
▁loại	-1502
▁lệnh	-1503
▁ngăn	-1504
▁quét	-1505
▁sống	-1506
▁thất	-1507
▁tinh	-1508
▁trơn	-1509
▁yout	-1510
▁điểm	-1511
▁đỉnh	-1512
▁đựng	-1513
▁biếng	-1514
▁video	-1515
▁chuyển	-1516
▁youtube	-1517
ck	-1518
lu	-1519
or	-1520
ìa	-1521
õm	-1522
ẩu	-1523
ểu	-1524
ốp	-1525
ộc	-1526
▁'	-1527
▁Ư	-1528
lag	-1529
▁22	-1530
▁Dù	-1531
▁Má	-1532
▁Tự	-1533
▁ha	-1534
▁hạ	-1535
▁sa	-1536
▁sử	-1537
▁tà	-1538
▁tô	-1539
▁tý	-1540
▁up	-1541
▁xu	-1542
▁xử	-1543
▁ám	-1544
▁Độ	-1545
▁đề	-1546
▁Ơi	-1547
▁Ừa	-1548
▁Bài	-1549
▁Cây	-1550
▁Cầu	-1551
▁Gửi	-1552
▁Hầm	-1553
▁Hỏi	-1554
▁Rửa	-1555
▁Tắm	-1556
▁Vào	-1557
▁bác	-1558
▁bát	-1559
▁bẩn	-1560
▁bồn	-1561
▁chờ	-1562
▁cải	-1563
▁cầm	-1564
▁cầu	-1565
▁cẩn	-1566
▁dày	-1567
▁gớm	-1568
▁mặn	-1569
▁mời	-1570
▁nếu	-1571
▁rèm	-1572
▁suy	-1573
▁tài	-1574
▁tên	-1575
▁túi	-1576
▁tận	-1577
▁xưa	-1578
▁ứng	-1579
▁Chuy	-1580
▁Cháu	-1581
▁Chốc	-1582
▁Hoàn	-1583
▁Khoá	-1584
▁Ngộp	-1585
▁Quét	-1586
▁Trưa	-1587
▁cháu	-1588
▁chọn	-1589
▁chốt	-1590
▁cuộc	-1591
▁cúng	-1592
▁flag	-1593
▁hằng	-1594
▁họng	-1595
▁khát	-1596
▁kiến	-1597
▁kính	-1598
▁mood	-1599
▁ngọt	-1600
▁nhõm	-1601
▁ràng	-1602
▁thận	-1603
▁thừa	-1604
▁trận	-1605
▁wifi	-1606
erally	-1607
▁Khách	-1608
▁Ngưng	-1609
▁chanh	-1610
▁chill	-1611
▁chung	-1612
▁chẳng	-1613
▁khiếp	-1614
▁khiển	-1615
▁khoác	-1616
▁quanh	-1617
▁quảng	-1618
▁thiện	-1619
▁tranh	-1620
▁tuyệt	-1621
15	-1622
fa	-1623
iz	-1624
rd	-1625
ro	-1626
xi	-1627
za	-1628
õi	-1629
ẵn	-1630
ềm	-1631
ịn	-1632
Ủa	-1633
ara	-1634
are	-1635
ead	-1636
ent	-1637
imp	-1638
lay	-1639
lot	-1640
low	-1641
oot	-1642
oải	-1643
per	-1644
uẩn	-1645
ềng	-1646
ỗng	-1647
▁21	-1648
▁26	-1649
▁50	-1650
▁Cọ	-1651
▁Cổ	-1652
▁Xe	-1653
▁bơ	-1654
▁cô	-1655
▁dơ	-1656
▁in	-1657
▁sợ	-1658
▁tớ	-1659
▁un	-1660
▁Áo	-1661
▁êm	-1662
▁ồn	-1663
▁Ủa	-1664
endy	-1665
izza	-1666
rder	-1667
uyên	-1668
ưỡng	-1669
▁Bực	-1670
▁Cúp	-1671
▁Cửa	-1672
▁Hút	-1673
▁Kéo	-1674
▁Kết	-1675
▁Mây	-1676
▁Nồi	-1677
▁Thư	-1678
▁Tin	-1679
▁Tạm	-1680
▁Tết	-1681
▁bày	-1682
▁bốc	-1683
▁cay	-1684
▁chè	-1685
▁chế	-1686
▁câu	-1687
▁cấp	-1688
▁cắm	-1689
▁dấu	-1690
▁dứt	-1691
▁era	-1692
▁gay	-1693
▁ghé	-1694
▁giò	-1695
▁gạo	-1696
▁hài	-1697
▁hồn	-1698
▁hội	-1699
▁hực	-1700
▁lạc	-1701
▁lất	-1702
▁lẩu	-1703
▁màu	-1704
▁mật	-1705
▁nắp	-1706
▁phở	-1707
▁ráo	-1708
▁sôi	-1709
▁sẵn	-1710
▁tai	-1711
▁teo	-1712
▁thủ	-1713
▁trẻ	-1714
▁tóc	-1715
▁tỏi	-1716
▁vội	-1717
▁xóa	-1718
▁yếu	-1719
▁Đơn	-1720
▁Đầu	-1721
▁đem	-1722
▁đôi	-1723
▁đặn	-1724
▁Buốt	-1725
▁Bình	-1726
▁Giảm	-1727
▁Hông	-1728
▁Hổng	-1729
▁Khát	-1730
▁Khỏi	-1731
▁Ngồi	-1732
▁Plot	-1733
▁Quần	-1734
▁Thèm	-1735
▁Thịt	-1736
▁Xong	-1737
▁chao	-1738
▁chìa	-1739
▁chụp	-1740
▁cạnh	-1741
▁dính	-1742
▁dừng	-1743
▁giày	-1744
▁giòn	-1745
▁hóng	-1746
▁hừng	-1747
▁khám	-1748
▁kiểu	-1749
▁lang	-1750
▁luộc	-1751
▁miết	-1752
▁ngập	-1753
▁ngắn	-1754
▁phất	-1755
▁phần	-1756
▁quây	-1757
▁sang	-1758
▁ship	-1759
▁sofa	-1760
▁sung	-1761
▁suốt	-1762
▁taxi	-1763
▁thấu	-1764
▁tiến	-1765
▁tiền	-1766
▁toán	-1767
▁truy	-1768
▁trái	-1769
▁trân	-1770
▁trôi	-1771
▁viên	-1772
▁viện	-1773
▁vòng	-1774
▁xuất	-1775
▁xăng	-1776
▁Đánh	-1777
▁Chill	-1778
▁Chuẩn	-1779
▁Robot	-1780
▁Tiếng	-1781
▁Trông	-1782
▁check	-1783
▁giọng	-1784
▁hưởng	-1785
▁khiến	-1786
▁khoái	-1787
▁pizza	-1788
▁thang	-1789
▁thanh	-1790
▁thẳng	-1791
▁tránh	-1792
▁tưởng	-1793
eadline	-1794
▁chuyến	-1795
▁khoảng	-1796
▁nghiệm	-1797
▁phương	-1798
▁thoảng	-1799
▁thương	-1800
at	-1801
ce	-1802
el	-1803
ep	-1804
ew	-1805
ga	-1806
ly	-1807
me	-1808
nd	-1809
rn	-1810
th	-1811
wi	-1812
ãy	-1813
ót	-1814
ĩa	-1815
ưu	-1816
Ấy	-1817
ằn	-1818
ếc	-1819
ễn	-1820
ớp	-1821
▁Ổ	-1822
▁Ờ	-1823
▁Ở	-1824
ame	-1825
bse	-1826
eal	-1827
fit	-1828
het	-1829
ink	-1830
key	-1831
oga	-1832
ort	-1833
xic	-1834
õng	-1835
ửng	-1836
▁14	-1837
▁18	-1838
▁Ai	-1839
▁Bà	-1840
▁Cố	-1841
▁Cứ	-1842
▁Ok	-1843
▁St	-1844
▁Tí	-1845
▁ad	-1846
▁cọ	-1847
▁do	-1848
▁en	-1849
▁hà	-1850
▁kỷ	-1851
▁la	-1852
▁lã	-1853
▁mu	-1854
▁mũ	-1855
▁nà	-1856
▁nạ	-1857
▁re	-1858
▁rã	-1859
▁sĩ	-1860
▁tụ	-1861
▁vo	-1862
▁vở	-1863
▁xã	-1864
▁óc	-1865
▁đỏ	-1866
▁Ơn	-1867
▁Ấy	-1868
▁ớt	-1869
▁ừm	-1870
care	-1871
cter	-1872
luet	-1873
ooth	-1874
wist	-1875
▁Bếp	-1876
▁Dạo	-1877
▁Dẹp	-1878
▁Hơi	-1879
▁Kem	-1880
▁Khi	-1881
▁Lit	-1882
▁Lâu	-1883
▁Mần	-1884
▁Nêm	-1885
▁Rau	-1886
▁Sạc	-1887
▁Sức	-1888
▁Tâm	-1889
▁Tức	-1890
▁Vài	-1891
▁Vứt	-1892
▁Xịt	-1893
▁app	-1894
▁bán	-1895
▁bại	-1896
▁bảo	-1897
▁bền	-1898
▁bột	-1899
▁cơn	-1900
▁cập	-1901
▁dõi	-1902
▁dẫn	-1903
▁dịp	-1904
▁gas	-1905
▁ghế	-1906
▁gói	-1907
▁gấp	-1908
▁gầy	-1909
▁hao	-1910
▁hâm	-1911
▁hôn	-1912
▁hạt	-1913
▁lit	-1914
▁lầu	-1915
▁lợi	-1916
▁may	-1917
▁mèo	-1918
▁mục	-1919
▁ngo	-1920
▁nhe	-1921
▁nãy	-1922
▁nội	-1923
▁ong	-1924
▁phí	-1925
▁quê	-1926
▁reo	-1927
▁réo	-1928
▁rượ	-1929
▁rạp	-1930
▁rỗi	-1931
▁rộn	-1932
▁sấm	-1933
▁thú	-1934
▁thụ	-1935
▁trữ	-1936
▁tám	-1937
▁tải	-1938
▁tấm	-1939
▁vời	-1940
▁xào	-1941
▁xúc	-1942
▁xảy	-1943
▁Đôi	-1944
▁đáo	-1945
▁đĩa	-1946
▁đạc	-1947
▁địa	-1948
▁đối	-1949
▁đời	-1950
bsess	-1951
estly	-1952
hetic	-1953
ifest	-1954
rnout	-1955
utfit	-1956
▁Chút	-1957
▁Chạy	-1958
▁Cuốn	-1959
▁Cùng	-1960
▁Hiện	-1961
▁Luộc	-1962
▁Nhìn	-1963
▁Quán	-1964
▁Ship	-1965
▁Thấy	-1966
▁Tiết	-1967
▁Tùng	-1968
▁Tỉnh	-1969
▁banh	-1970
▁biến	-1971
▁chúc	-1972
▁chăm	-1973
▁chậu	-1974
▁chớp	-1975
▁chục	-1976
▁căng	-1977
▁danh	-1978
▁dưới	-1979
▁game	-1980
▁giấu	-1981
▁hãng	-1982
▁hứng	-1983
▁hửng	-1984
▁khen	-1985
▁khóc	-1986
▁linh	-1987
▁ngớt	-1988
▁nhóm	-1989
▁nhịn	-1990
▁ninh	-1991
▁niệm	-1992
▁over	-1993
▁phào	-1994
▁phân	-1995
▁phép	-1996
▁phục	-1997
▁rang	-1998
▁sale	-1999
▁simp	-2000
▁sàng	-2001
▁sánh	-2002
▁sông	-2003
▁thảm	-2004
▁thấm	-2005
▁tổng	-2006
▁võng	-2007
▁vừng	-2008
▁yoga	-2009
ealing	-2010
▁Chỉnh	-2011
▁Thoải	-2012
▁Tháng	-2013
▁Thích	-2014
▁chara	-2015
▁chuối	-2016
▁giống	-2017
▁khoắn	-2018
▁muỗng	-2019
▁nghĩa	-2020
▁order	-2021
▁sướng	-2022
▁thỉnh	-2023
▁toxic	-2024
▁tuềng	-2025
▁twist	-2026
▁tương	-2027
▁vướng	-2028
onestly	-2029
▁Chuyển	-2030
▁camera	-2031
▁trendy	-2032
▁trường	-2033
esthetic	-2034
ifesting	-2035
luetooth	-2036
▁deadline	-2037
▁character	-2038
▁literally	-2039
..	-2040
10	-2041
de	-2042
do	-2043
es	-2044
ig	-2045
ju	-2046
oa	-2047
om	-2048
oá	-2049
ve	-2050
Âm	-2051
Ít	-2052
àu	-2053
ùi	-2054
ấn	-2055
ỉa	-2056
ốm	-2057
ụt	-2058
ựa	-2059
▁F	-2060
▁W	-2061
▁Y	-2062
▁Ố	-2063
ail	-2064
chị	-2065
cro	-2066
elf	-2067
eri	-2068
ess	-2069
etf	-2070
gle	-2071
ibe	-2072
iên	-2073
iệp	-2074
lix	-2075
one	-2076
ook	-2077
ost	-2078
ote	-2079
own	-2080
ram	-2081
rea	-2082
tam	-2083
ter	-2084
tre	-2085
xpe	-2086
yle	-2087
yến	-2088
ượn	-2089
▁19	-2090
▁24	-2091
▁Bộ	-2092
▁Cá	-2093
▁Cỡ	-2094
▁Kệ	-2095
▁Ly	-2096
▁Mì	-2097
▁Mô	-2098
▁Mệ	-2099
▁Mỹ	-2100
▁Ni	-2101
▁So	-2102
▁Từ	-2103
▁cư	-2104
▁dì	-2105
▁hê	-2106
▁hề	-2107
▁hỗ	-2108
▁hở	-2109
▁ký	-2110
▁my	-2111
▁mơ	-2112
▁ne	-2113
▁nớ	-2114
▁nở	-2115
▁rủ	-2116
▁sh	-2117
▁sả	-2118
▁tả	-2119
▁tế	-2120
▁tổ	-2121
▁tử	-2122
▁vé	-2123
▁vẽ	-2124
▁vỏ	-2125
▁Âm	-2126
▁Ít	-2127
▁ép	-2128
▁đê	-2129
▁đô	-2130
▁ốm	-2131
▁ốp	-2132
▁Ổn	-2133
ally	-2134
atch	-2135
inge	-2136
just	-2137
list	-2138
reen	-2139
uyệt	-2140
view	-2141
ưởng	-2142
▁App	-2143
▁Bão	-2144
▁Bảo	-2145
▁Bột	-2146
▁Cha	-2147
▁Cám	-2148
▁Cáu	-2149
▁Cải	-2150
▁Cập	-2151
▁Cắt	-2152
▁Già	-2153
▁Gấp	-2154
▁Gần	-2155
▁Hâm	-2156
▁Hộp	-2157
▁Khí	-2158
▁Kêu	-2159
▁Loa	-2160
▁Low	-2161
▁Lào	-2162
▁Lấy	-2163
▁Man	-2164
▁Màu	-2165
▁Mày	-2166
▁Môi	-2167
▁Mọi	-2168
▁Mời	-2169
▁Nay	-2170
▁Nhỏ	-2171
▁Red	-2172
▁Rem	-2173
▁Sàn	-2174
▁Sân	-2175
▁Sữa	-2176
▁Tỉa	-2177
▁Vậy	-2178
▁Xếp	-2179
▁bus	-2180
▁bèo	-2181
▁bơm	-2182
▁bầu	-2183
▁bắc	-2184
▁bắp	-2185
▁bừa	-2186
▁chà	-2187
▁chơ	-2188
▁cào	-2189
▁cân	-2190
▁căm	-2191
▁căn	-2192
▁cồn	-2193
▁dra	-2194
▁dám	-2195
▁dây	-2196
▁dép	-2197
▁dưa	-2198
▁dầm	-2199
▁dọc	-2200
▁ghi	-2201
▁gầm	-2202
▁gội	-2203
▁han	-2204
▁hiu	-2205
▁hot	-2206
▁hoá	-2207
▁huy	-2208
▁hái	-2209
▁hít	-2210
▁hóa	-2211
▁hại	-2212
▁hạn	-2213
▁hậu	-2214
▁hến	-2215
▁hối	-2216
▁hộp	-2217
▁khổ	-2218
▁lag	-2219
▁low	-2220
▁lái	-2221
▁lâm	-2222
▁lùa	-2223
▁lưu	-2224
▁lầm	-2225
▁lối	-2226
▁lốp	-2227
▁lớp	-2228
▁lụi	-2229
▁lực	-2230
▁mền	-2231
▁mọc	-2232
▁nem	-2233
▁ngô	-2234
▁nêm	-2235
▁nạp	-2236
▁nếm	-2237
▁nến	-2238
▁nộp	-2239
▁phá	-2240
▁que	-2241
▁ram	-2242
▁sát	-2243
▁sâu	-2244
▁sắc	-2245
▁sủa	-2246
▁thơ	-2247
▁tim	-2248
▁trò	-2249
▁tàu	-2250
▁táo	-2251
▁tây	-2252
▁tét	-2253
▁tạo	-2254
▁tắc	-2255
▁tắn	-2256
▁tụi	-2257
▁vài	-2258
▁vân	-2259
▁văn	-2260
▁vấn	-2261
▁vịt	-2262
▁xài	-2263
▁xôi	-2264
▁xấu	-2265
▁xịt	-2266
▁yep	-2267
▁ích	-2268
▁Đổi	-2269
▁Đợi	-2270
▁đám	-2271
▁đét	-2272
▁đậm	-2273
▁đập	-2274
▁đội	-2275
▁đột	-2276
▁Ướp	-2277
croll	-2278
eries	-2279
oogle	-2280
pport	-2281
tamin	-2282
think	-2283
tress	-2284
xpect	-2285
▁Biết	-2286
▁Bước	-2287
▁Chụp	-2288
▁Cóng	-2289
▁Cười	-2290
▁Giày	-2291
▁Glow	-2292
▁Hạnh	-2293
▁Khoẻ	-2294
▁Khóa	-2295
▁Lưng	-2296
▁Main	-2297
▁Mang	-2298
▁Muốn	-2299
▁Netf	-2300
▁Nghe	-2301
▁Okay	-2302
▁Phân	-2303
▁Rảnh	-2304
▁Self	-2305
▁Sống	-2306
▁Thêm	-2307
▁Thất	-2308
▁Trải	-2309
▁Tạnh	-2310
▁Vibe	-2311
▁Viết	-2312
▁Việc	-2313
▁call	-2314
▁chai	-2315
▁châm	-2316
▁chói	-2317
▁chảo	-2318
▁chấp	-2319
▁chật	-2320
▁chốc	-2321
▁chối	-2322
▁chổi	-2323
▁chức	-2324
▁cánh	-2325
▁cộng	-2326
▁down	-2327
▁dành	-2328
▁fine	-2329
▁giận	-2330
▁glow	-2331
▁good	-2332
▁hiểm	-2333
▁lãng	-2334
▁mind	-2335
▁mượn	-2336
▁mỏng	-2337
▁ngâm	-2338
▁ngân	-2339
▁ngại	-2340
▁ngầu	-2341
▁nhen	-2342
▁nhân	-2343
▁nhầm	-2344
▁nhẫn	-2345
▁nhậu	-2346
▁niềm	-2347
▁phối	-2348
▁quéo	-2349
▁riêu	-2350
▁ruốc	-2351
▁rượi	-2352
▁rộng	-2353
▁slay	-2354
▁suất	-2355
▁sảng	-2356
▁test	-2357
▁tham	-2358
▁thầy	-2359
▁tiếc	-2360
▁tiệc	-2361
▁tiệm	-2362
▁toát	-2363
▁trăm	-2364
▁trầm	-2365
▁trằn	-2366
▁trọc	-2367
▁tung	-2368
▁tuốt	-2369
▁tuổi	-2370
▁vùng	-2371
▁vọng	-2372
▁vồng	-2373
▁xung	-2374
▁xách	-2375
▁Đứng	-2376
▁đoán	-2377
▁đọng	-2378
▁Chiên	-2379
▁Green	-2380
▁Khuya	-2381
▁Nướng	-2382
▁Quảng	-2383
▁Style	-2384
▁Sương	-2385
▁Thiết	-2386
▁Trồng	-2387
▁Tuyệt	-2388
▁chống	-2389
▁cưỡng	-2390
▁dưỡng	-2391
▁email	-2392
▁hoàng	-2393
▁khoai	-2394
▁miếng	-2395
▁muống	-2396
▁never	-2397
▁ngoan	-2398
▁ngưng	-2399
▁phộng	-2400
▁quánh	-2401
▁thùng	-2402
▁thằng	-2403
▁trồng	-2404
▁tuyến	-2405
▁tuyết	-2406
▁watch	-2407
▁xuyên	-2408
▁Đường	-2409
▁đương	-2410
▁Chuyện	-2411
▁Chương	-2412
▁Lowkey	-2413
▁Obsess	-2414
▁Remote	-2415
▁adjust	-2416
▁chương	-2417
▁nghiệp	-2418
▁nguyên	-2419
▁outfit	-2420
▁scroll	-2421
▁series	-2422
▁stress	-2423
▁thưởng	-2424
▁truyền	-2425
▁truyện	-2426
▁trưởng	-2427
▁Netflix	-2428
▁Shipper	-2429
▁burnout	-2430
▁healing	-2431
▁support	-2432
▁vitamin	-2433
▁honestly	-2434
▁Aesthetic	-2435
▁Bluetooth	-2436
▁Literally	-2437
▁overthink	-2438
▁Manifesting	-2439
DM	-2440
Do	-2441
TP	-2442
To	-2443
ad	-2444
ap	-2445
cc	-2446
di	-2447
ee	-2448
ey	-2449
fe	-2450
ff	-2451
ge	-2452
gy	-2453
he	-2454
hu	-2455
je	-2456
ku	-2457
ld	-2458
lf	-2459
lk	-2460
lm	-2461
lo	-2462
mf	-2463
na	-2464
ou	-2465
sh	-2466
te	-2467
ti	-2468
ue	-2469
up	-2470
òi	-2471
óp	-2472
Để	-2473
ũa	-2474
ũi	-2475
Ẩm	-2476
ẩy	-2477
ậc	-2478
ẹo	-2479
ẽn	-2480
ệu	-2481
ịm	-2482
ỏa	-2483
ớc	-2484
ợn	-2485
ủi	-2486
ữu	-2487
▁i	-2488
▁z	-2489
▁ù	-2490
▁Ồ	-2491
▁Ứ	-2492
...	-2493
15,	-2494
45,	-2495
Anh	-2496
Mưa	-2497
Mắt	-2498
Tok	-2499
ace	-2500
age	-2501
ake	-2502
ale	-2503
ard	-2504
art	-2505
ate	-2506
bra	-2507
com	-2508
dic	-2509
dio	-2510
dle	-2511
eek	-2512
eel	-2513
eng	-2514
ery	-2515
hie	-2516
ice	-2517
ign	-2518
ile	-2519
ill	-2520
ima	-2521
ind	-2522
int	-2523
ion	-2524
iqu	-2525
ire	-2526
itu	-2527
lad	-2528
let	-2529
lip	-2530
lug	-2531
mar	-2532
oay	-2533
ode	-2534
ois	-2535
olu	-2536
ome	-2537
onm	-2538
opp	-2539
ory	-2540
ose	-2541
ouT	-2542
ppy	-2543
rat	-2544
red	-2545
uần	-2546
uồn	-2547
uột	-2548
vir	-2549
ype	-2550
ươn	-2551
ầng	-2552
ệch	-2553
ờng	-2554
▁13	-2555
▁25	-2556
▁35	-2557
▁Bố	-2558
▁Co	-2559
▁Cà	-2560
▁Cô	-2561
▁Dự	-2562
▁Hà	-2563
▁Hê	-2564
▁Hơ	-2565
▁Hừ	-2566
▁Ký	-2567
▁Kế	-2568
▁Kỳ	-2569
▁Kỷ	-2570
▁Mị	-2571
▁Nà	-2572
▁Re	-2573
▁Rã	-2574
▁Rổ	-2575
▁Se	-2576
▁Sm	-2577
▁Sả	-2578
▁Số	-2579
▁Tô	-2580
▁Xo	-2581
▁bã	-2582
▁cu	-2583
▁cù	-2584
▁cỏ	-2585
▁cờ	-2586
▁cỡ	-2587
▁củ	-2588
▁cừ	-2589
▁cử	-2590
▁dế	-2591
▁dề	-2592
▁fo	-2593
▁gr	-2594
▁há	-2595
▁hé	-2596
▁hũ	-2597
▁họ	-2598
▁hủ	-2599
▁lô	-2600
▁lẹ	-2601
▁lẽ	-2602
▁lễ	-2603
▁lỡ	-2604
▁ma	-2605
▁mè	-2606
▁mê	-2607
▁mờ	-2608
▁nổ	-2609
▁ro	-2610
▁rả	-2611
▁rỉ	-2612
▁rổ	-2613
▁rỡ	-2614
▁sơ	-2615
▁ty	-2616
▁tệ	-2617
▁ui	-2618
▁uể	-2619
▁vá	-2620
▁vĩ	-2621
▁vả	-2622
▁vỡ	-2623
▁vợ	-2624
▁xi	-2625
▁xả	-2626
▁xổ	-2627
▁Ài	-2628
▁Ái	-2629
▁Ôn	-2630
▁ào	-2631
▁án	-2632
▁át	-2633
▁âu	-2634
▁ôn	-2635
▁úp	-2636
▁Đố	-2637
▁đu	-2638
▁đơ	-2639
▁Ưm	-2640
▁ưu	-2641
▁ảo	-2642
▁Ẩm	-2643
▁Ối	-2644
▁ủi	-2645
▁ức	-2646
▁ừa	-2647
Dora	-2648
aceb	-2649
arge	-2650
ccid	-2651
comm	-2652
date	-2653
doku	-2654
eace	-2655
eali	-2656
emon	-2657
eral	-2658
ergy	-2659
etox	-2660
ffet	-2661
ills	-2662
ique	-2663
ject	-2664
kTok	-2665
keep	-2666
llow	-2667
nack	-2668
nima	-2669
orld	-2670
oxic	-2671
oàng	-2672
plug	-2673
ract	-2674
rama	-2675
rash	-2676
reak	-2677
ream	-2678
ssue	-2679
stag	-2680
tive	-2681
uyến	-2682
uyễn	-2683
vest	-2684
▁50%	-2685
▁Big	-2686
▁Bán	-2687
▁Bát	-2688
▁Bón	-2689
▁Bơi	-2690
▁Bất	-2691
▁Bận	-2692
▁Bắt	-2693
▁Bức	-2694
▁Cam	-2695
▁Cao	-2696
▁Che	-2697
▁Chà	-2698
▁Chú	-2699
▁Chả	-2700
▁Chỉ	-2701
▁Chớ	-2702
▁Chờ	-2703
▁Cup	-2704
▁Còn	-2705
▁Cơn	-2706
▁Cậu	-2707
▁Dao	-2708
▁Dặn	-2709
▁EDM	-2710
▁End	-2711
▁Ghi	-2712
▁Giá	-2713
▁Giỏ	-2714
▁Giỗ	-2715
▁Giữ	-2716
▁Gác	-2717
▁Gòn	-2718
▁Góc	-2719
▁Gói	-2720
▁Gọt	-2721
▁HTV	-2722
▁Hít	-2723
▁Hải	-2724
▁Họp	-2725
▁Khá	-2726
▁Lan	-2727
▁Lạt	-2728
▁Lọc	-2729
▁Lốp	-2730
▁Lớp	-2731
▁Lửa	-2732
▁Màn	-2733
▁Mùi	-2734
▁Mũi	-2735
▁Mất	-2736
▁Mắm	-2737
▁Mặt	-2738
▁Nem	-2739
▁Nhi	-2740
▁Nhẹ	-2741
▁Nếu	-2742
▁Nội	-2743
▁Okê	-2744
▁Phố	-2745
▁Pin	-2746
▁Quá	-2747
▁Rim	-2748
▁Run	-2749
▁Rút	-2750
▁Rất	-2751
▁Sài	-2752
▁Tai	-2753
▁Tam	-2754
▁Tan	-2755
▁Tha	-2756
▁Thi	-2757
▁Thể	-2758
▁Thở	-2759
▁Thủ	-2760
▁Trẻ	-2761
▁Tây	-2762
▁Tèo	-2763
▁Tôm	-2764
▁Túi	-2765
▁Tải	-2766
▁Tẹo	-2767
▁Tốc	-2768
▁Tới	-2769
▁Vân	-2770
▁Vải	-2771
▁Vắt	-2772
▁Vừa	-2773
▁Xay	-2774
▁Xoá	-2775
▁Xào	-2776
▁Xác	-2777
▁Yêu	-2778
▁alo	-2779
▁bed	-2780
▁bro	-2781
▁bám	-2782
▁bãi	-2783
▁bạc	-2784
▁bấc	-2785
▁bậc	-2786
▁bằm	-2787
▁bẳn	-2788
▁bết	-2789
▁bồi	-2790
▁bời	-2791
▁bứt	-2792
▁chó	-2793
▁chở	-2794
▁cua	-2795
▁cúc	-2796
▁cạn	-2797
▁cẩm	-2798
▁cật	-2799
▁cậy	-2800
▁cặp	-2801
▁cốc	-2802
▁cốm	-2803
▁cứu	-2804
▁dai	-2805
▁dao	-2806
▁duy	-2807
▁dào	-2808
▁dân	-2809
▁díu	-2810
▁dại	-2811
▁dằn	-2812
▁dồn	-2813
▁gan	-2814
▁gar	-2815
▁già	-2816
▁giũ	-2817
▁giả	-2818
▁giỗ	-2819
▁gáy	-2820
▁gìn	-2821
▁gợi	-2822
▁gợn	-2823
▁gửi	-2824
▁huh	-2825
▁hão	-2826
▁héo	-2827
▁hót	-2828
▁hải	-2829
▁hảo	-2830
▁hấp	-2831
▁hấu	-2832
▁hận	-2833
▁hắt	-2834
▁hệt	-2835
▁hỏa	-2836
▁hốc	-2837
▁hổi	-2838
▁hột	-2839
▁hớt	-2840
▁hụt	-2841
▁hữu	-2842
▁key	-2843
▁khử	-2844
▁kìa	-2845
▁kín	-2846
▁lan	-2847
▁lay	-2848
▁lon	-2849
▁lãm	-2850
▁lít	-2851
▁lóc	-2852
▁lõi	-2853
▁lập	-2854
▁lặn	-2855
▁lịm	-2856
▁lội	-2857
▁lột	-2858
▁lụt	-2859
▁lựa	-2860
▁mom	-2861
▁mâm	-2862
▁mâu	-2863
▁mòn	-2864
▁môi	-2865
▁múc	-2866
▁mạn	-2867
▁mẩy	-2868
▁mắc	-2869
▁mắn	-2870
▁mềm	-2871
▁mịt	-2872
▁mốc	-2873
▁mồm	-2874
▁mứt	-2875
▁mực	-2876
▁nap	-2877
▁ngõ	-2878
▁ngả	-2879
▁ngụ	-2880
▁ngứ	-2881
▁ngừ	-2882
▁nhè	-2883
▁now	-2884
▁não	-2885
▁nén	-2886
▁nín	-2887
▁nít	-2888
▁nôn	-2889
▁nản	-2890
▁nếp	-2891
▁nệm	-2892
▁nỗi	-2893
▁nụi	-2894
▁nứt	-2895
▁oải	-2896
▁phờ	-2897
▁phủ	-2898
▁pro	-2899
▁quy	-2900
▁qué	-2901
▁quế	-2902
▁red	-2903
▁rán	-2904
▁râm	-2905
▁ròi	-2906
▁rót	-2907
▁rơi	-2908
▁rịn	-2909
▁rọi	-2910
▁rối	-2911
▁rục	-2912
▁rứt	-2913
▁rực	-2914
▁sad	-2915
▁sóc	-2916
▁súp	-2917
▁sấy	-2918
▁sầm	-2919
▁sầu	-2920
▁sếp	-2921
▁sốc	-2922
▁sốt	-2923
▁tha	-2924
▁thả	-2925
▁thố	-2926
▁toi	-2927
▁toả	-2928
▁trê	-2929
▁trì	-2930
▁trí	-2931
▁trừ	-2932
▁tín	-2933
▁tóp	-2934
▁tôn	-2935
▁tầm	-2936
▁tựu	-2937
▁une	-2938
▁vai	-2939
▁veo	-2940
▁váy	-2941
▁vất	-2942
▁vầy	-2943
▁vận	-2944
▁vật	-2945
▁vắt	-2946
▁xoá	-2947
▁xèo	-2948
▁xét	-2949
▁xịn	-2950
▁Đeo	-2951
▁Đây	-2952
▁Đãi	-2953
▁Đèo	-2954
▁Đạp	-2955
▁Đậu	-2956
▁Đệm	-2957
▁Đứa	-2958
▁đao	-2959
▁đun	-2960
▁đào	-2961
▁đãi	-2962
▁đùa	-2963
▁đũa	-2964
▁đại	-2965
▁đạp	-2966
▁đảo	-2967
▁đấu	-2968
▁đần	-2969
▁đậy	-2970
▁đắt	-2971
▁đệm	-2972
▁đốt	-2973
▁độc	-2974
▁Ưng	-2975
▁Ước	-2976
▁Ống	-2977
▁Ứng	-2978
brace	-2979
enger	-2980
heard	-2981
itude	-2982
lming	-2983
marth	-2984
meone	-2985
mfort	-2986
oisin	-2987
olume	-2988
osted	-2989
▁Bóng	-2990
▁Canh	-2991
▁Chàm	-2992
▁Cháo	-2993
▁Chèn	-2994
▁Chơi	-2995
▁Chập	-2996
▁Chậu	-2997
▁Chọn	-2998
▁Cuộc	-2999
▁Cách	-3000
▁Danh	-3001
▁File	-3002
▁Giao	-3003
▁Giám	-3004
▁Giải	-3005
▁Giấc	-3006
▁Hiểu	-3007
▁Hiệu	-3008
▁Huhu	-3009
▁Hành	-3010
▁Hùng	-3011
▁Họng	-3012
▁Khóc	-3013
▁Khăn	-3014
▁Khởi	-3015
▁Kiên	-3016
▁Kiếm	-3017
▁Kiểu	-3018
▁Kênh	-3019
▁Lười	-3020
▁Lịch	-3021
▁Mess	-3022
▁Mood	-3023
▁Mùng	-3024
▁Mạng	-3025
▁Mạnh	-3026
▁Mừng	-3027
▁Ngay	-3028
▁Nghệ	-3029
▁Ngáp	-3030
▁Nhân	-3031
▁Nhạc	-3032
▁Nhất	-3033
▁Nhận	-3034
▁Niềm	-3035
▁Năng	-3036
▁Phan	-3037
▁Pháp	-3038
▁Quen	-3039
▁Ráng	-3040
▁Rồng	-3041
▁Sale	-3042
▁Simp	-3043
▁Sinh	-3044
▁Slay	-3045
▁Sách	-3046
▁Sóng	-3047
▁Tham	-3048
▁Thau	-3049
▁Theo	-3050
▁Thật	-3051
▁Thớt	-3052
▁Tinh	-3053
▁Tiến	-3054
▁Tiếp	-3055
▁Trân	-3056
▁Tuần	-3057
▁Tăng	-3058
▁Tưới	-3059
▁Tổng	-3060
▁Vườn	-3061
▁Wifi	-3062
▁YouT	-3063
▁bill	-3064
▁biếc	-3065
▁book	-3066
▁busy	-3067
▁buộc	-3068
▁bông	-3069
▁băng	-3070
▁bạch	-3071
▁bỗng	-3072
▁cafe	-3073
▁care	-3074
▁chay	-3075
▁chim	-3076
▁châu	-3077
▁chèn	-3078
▁chép	-3079
▁chóc	-3080
▁chùa	-3081
▁chùi	-3082
▁chập	-3083
▁chội	-3084
▁chời	-3085
▁chợp	-3086
▁clip	-3087
▁cành	-3088
▁cưới	-3089
▁cống	-3090
▁diễn	-3091
▁diệt	-3092
▁drag	-3093
▁drap	-3094
▁dàng	-3095
▁dông	-3096
▁dẳng	-3097
▁dịch	-3098
▁fake	-3099
▁feel	-3100
▁fire	-3101
▁gara	-3102
▁gate	-3103
▁ghét	-3104
▁giết	-3105
▁giới	-3106
▁grat	-3107
▁have	-3108
▁hiếu	-3109
▁hiền	-3110
▁hiển	-3111
▁hong	-3112
▁hoặc	-3113
▁hype	-3114
▁hùng	-3115
▁hồng	-3116
▁khúc	-3117
▁khẩu	-3118
▁khắc	-3119
▁khắp	-3120
▁kiên	-3121
▁kiện	-3122
▁like	-3123
▁link	-3124
▁list	-3125
▁lung	-3126
▁luận	-3127
▁lưng	-3128
▁lươn	-3129
▁lượt	-3130
▁lệch	-3131
▁lỏng	-3132
▁lồng	-3133
▁lộng	-3134
▁mail	-3135
▁main	-3136
▁mode	-3137
▁mong	-3138
▁mộng	-3139
▁mừng	-3140
▁nguy	-3141
▁ngàn	-3142
▁ngót	-3143
▁ngôi	-3144
▁ngôn	-3145
▁ngấm	-3146
▁ngắc	-3147
▁ngứa	-3148
▁ngực	-3149
▁nhai	-3150
▁nhan	-3151
▁nhão	-3152
▁nhạt	-3153
▁nhấc	-3154
▁nhặt	-3155
▁nhện	-3156
▁nhớt	-3157
▁nhựa	-3158
▁niên	-3159
▁nành	-3160
▁phun	-3161
▁phán	-3162
▁pháp	-3163
▁phía	-3164
▁phạt	-3165
▁phẩm	-3166
▁phết	-3167
▁ping	-3168
▁play	-3169
▁post	-3170
▁ranh	-3171
▁rech	-3172
▁rest	-3173
▁ruột	-3174
▁ráng	-3175
▁rích	-3176
▁rười	-3177
▁rượu	-3178
▁rạng	-3179
▁self	-3180
▁sign	-3181
▁soát	-3182
▁suôn	-3183
▁sưng	-3184
▁take	-3185
▁talk	-3186
▁thao	-3187
▁thin	-3188
▁thoả	-3189
▁thuê	-3190
▁thuỷ	-3191
▁thâm	-3192
▁thít	-3193
▁thúc	-3194
▁thản	-3195
▁thập	-3196
▁thắp	-3197
▁tiên	-3198
▁tiểu	-3199
▁tiễn	-3200
▁trai	-3201
▁treo	-3202
▁tràn	-3203
▁trâu	-3204
▁trải	-3205
▁trệt	-3206
▁trộn	-3207
▁trực	-3208
▁tàng	-3209
▁tầng	-3210
▁tặng	-3211
▁very	-3212
▁view	-3213
▁viết	-3214
▁vững	-3215
▁week	-3216
▁xinh	-3217
▁xoay	-3218
▁xích	-3219
▁xước	-3220
▁xứng	-3221
▁zone	-3222
▁Đóng	-3223
▁Đăng	-3224
▁điệu	-3225
▁đăng	-3226
▁đống	-3227
▁ương	-3228
ealise	-3229
ention	-3230
onment	-3231
oothie	-3232
opping	-3233
verter	-3234
▁Accid	-3235
▁Binge	-3236
▁Chưng	-3237
▁Chồng	-3238
▁Faceb	-3239
▁Giọng	-3240
▁Gương	-3241
▁Hello	-3242
▁Hills	-3243
▁Hoàng	-3244
▁Miếng	-3245
▁Ngoải	-3246
▁Order	-3247
▁Phiền	-3248
▁Quỳnh	-3249
▁Story	-3250
▁Thiệt	-3251
▁Thỉnh	-3252
▁Toxic	-3253
▁Tránh	-3254
▁Trạng	-3255
▁Trứng	-3256
▁Tường	-3257
▁World	-3258
▁Xoong	-3259
▁addic	-3260
▁binge	-3261
▁break	-3262
▁chóng	-3263
▁chưng	-3264
▁chứng	-3265
▁crash	-3266
▁detox	-3267
▁drama	-3268
▁dương	-3269
▁enter	-3270
▁envir	-3271
▁ghiền	-3272
▁giông	-3273
▁giăng	-3274
▁grind	-3275
▁gương	-3276
▁happy	-3277
▁issue	-3278
▁khoán	-3279
▁khoản	-3280
▁khuẩn	-3281
▁khùng	-3282
▁kiêng	-3283
▁luyến	-3284
▁luồng	-3285
▁lương	-3286
▁nghẹt	-3287
▁nghẽn	-3288
▁ngoãn	-3289
▁nguồn	-3290
▁nhược	-3291
▁peace	-3292
▁phase	-3293
▁phiên	-3294
▁phong	-3295
▁phóng	-3296
▁phẳng	-3297
▁pract	-3298
▁radio	-3299
▁riềng	-3300
▁salad	-3301
▁share	-3302
▁snack	-3303
▁super	-3304
▁thiên	-3305
▁thoát	-3306
▁thuẫn	-3307
▁thuận	-3308
▁tired	-3309
▁trang	-3310
▁tress	-3311
▁triển	-3312
▁trích	-3313
▁trúng	-3314
▁tường	-3315
▁unint	-3316
▁vibes	-3317
commend	-3318
entally	-3319
stagram	-3320
xpected	-3321
▁Camera	-3322
▁Ending	-3323
▁Google	-3324
▁Khoảnh	-3325
▁Khuyến	-3326
▁Outfit	-3327
▁Review	-3328
▁TikTok	-3329
▁Trendy	-3330
▁Volume	-3331
▁buffet	-3332
▁choose	-3333
▁energy	-3334
▁expect	-3335
▁follow	-3336
▁garage	-3337
▁google	-3338
▁	-3339
n	-3340
i	-3341
h	-3342
t	-3343
g	-3344
c	-3345
m	-3346
đ	-3347
a	-3348
u	-3349
o	-3350
r	-3351
ô	-3352
b	-3353
á	-3354
à	-3355
y	-3356
k	-3357
l	-3358
ạ	-3359
ờ	-3360
p	-3361
ó	-3362
.	-3363
v	-3364
ồ	-3365
ơ	-3366
ư	-3367
ắ	-3368
s	-3369
ế	-3370
e	-3371
ố	-3372
q	-3373
ứ	-3374
ậ	-3375
ủ	-3376
â	-3377
ê	-3378
ò	-3379
ấ	-3380
T	-3381
ề	-3382
ớ	-3383
ú	-3384
d	-3385
è	-3386
?	-3387
ệ	-3388
ộ	-3389
,	-3390
x	-3391
ả	-3392
C	-3393
ầ	-3394
ừ	-3395
B	-3396
ở	-3397
ị	-3398
ì	-3399
ợ	-3400
ù	-3401
H	-3402
í	-3403
é	-3404
ữ	-3405
ặ	-3406
ă	-3407
N	-3408
ẹ	-3409
M	-3410
ỏ	-3411
ọ	-3412
ể	-3413
ổ	-3414
Đ	-3415
ỉ	-3416
ử	-3417
ã	-3418
1	-3419
K	-3420
5	-3421
ẻ	-3422
0	-3423
ự	-3424
S	-3425
G	-3426
L	-3427
ụ	-3428
ẩ	-3429
ỗ	-3430
6	-3431
2	-3432
7	-3433
3	-3434
ỡ	-3435
ễ	-3436
A	-3437
ý	-3438
V	-3439
ũ	-3440
8	-3441
R	-3442
E	-3443
9	-3444
D	-3445
4	-3446
ỷ	-3447
P	-3448
ĩ	-3449
Ă	-3450
X	-3451
ằ	-3452
ẳ	-3453
f	-3454
ỳ	-3455
O	-3456
ẽ	-3457
U	-3458
!	-3459
Q	-3460
õ	-3461
w	-3462
ẫ	-3463
Ừ	-3464
Ô	-3465
ẵ	-3466
ỹ	-3467
'	-3468
z	-3469
À	-3470
Ơ	-3471
Ả	-3472
Ê	-3473
Á	-3474
-	-3475
Ư	-3476
Ủ	-3477
j	-3478
Ấ	-3479
Ổ	-3480
Ờ	-3481
Ở	-3482
/	-3483
F	-3484
W	-3485
Y	-3486
Â	-3487
Í	-3488
Ố	-3489
%	-3490
:	-3491
Ẩ	-3492
Ồ	-3493
Ứ	-3494
